[PAD]
[UNK]
[CLS]
[SEP]
[MASK]
##,
##.

##:
-
and
##s
of
to
##)
(
##/
the
##-
in
##cid
##(

for
a
##ing
C
with
–
##com
•
và
I
Project
việc
on
:
công
##d
##n
các
##C
2
3
1
##ed
##c
##y
system
as
Software
&
at
T
project
Developer
##i
viên
M
##t
Java
o
University
team
##er
học
+
##e
Vietnam
trình
Công
năng
##@
dụng
N
test
S
is
##a
##A
##m
4
##gmail
##p
##2
work
SQL
English

##S
B
A
hàng
##T
5
Technology
##://
làm
skills
Minh
Team
của
from
new
by
Web
##D
##vn
software
ty
Nam
Server
2014
##o
application
##’
##al
cho
##M
trong
án
2012
company
management
##ng
Android
Email
##in
##I
##u
##;
lý
##NET
2013
Ho
Description
##ly
##B
design
IT
G
my
Chi
experience
E
2015
System
##r
P
web
development
HTML
website
●
Design
PHP
Management
##1
L
##l
using
2016
##G
working
dự
thành
years
##...
that
##O
customer
about
knowledge
được
##P
6
The
nghiệp
nghệ
##b
##3
data
##g
Good
Company
My
V
2011
##U
hệ
H
thống
với
thông
có
mềm
Position
tin
phần
R
về
Engineer
Development
Microsoft
##an
FPT
kế
Programming
all
F
##V
##N
Experience
2010
Information
##).
lập
Test
quản
City
an
##or
##H
or
tại
triển
##L
##5
have
##4
D
###
Windows
Có
Page
Manager
months
code
##re
Kỹ
##:32)
##E
Hà
##th
##R
gia
|
business
7
K
2017
##、
can
Work
testing
projects
server
CSS

time
##www
chỉ
##v
##F
##on
sinh
2008
Nội
động
##),
##k
information
Develop
used
sử
Technologies
be
Mobile
Vietnamese
Skills
##ation
Database
##K
good
To
tốt
ASP
/
Language
nghiệm
MS
trường
EDUCATION
cấp
##Responsibilities
kinh
tính
SKILLS
##h
http
Customer
dựng
*
khách
Website
MVC
Framework
##)(

environment
Lập
https
trí
10
nhân
database
Education
support
trên
##の
Viet
liệu
hiện
developer
programming
năm
Business
8
t
·
ngữ
customers
Visual
##it
để
MySQL
position
Hanoi
bản
Oracle
##Net
9
vụ
##le
Anh
Job
year
Học
members
##9
##x
Science
##end
Computer
Nguyen
J
other
c
tích
product
thức
##ch
In
thiết
ứng
##en
Engineering
such
EXPERIENCE
report
giao
process
user
Date
manage
một
Studio
Phone
Address
##8
Support
##f
Đại
Leader
app
phát
size
skill
##ic
requirements
technology
mobile
Nhân
Senior
Ha
##++
Working
Languages
Technical
Co
##id
game
tiếp
Data
##es
2009
May
##Y
framework
Present
Spring
develop
##7
chuyên
District
x
service
communication
##6
##ent
up
HỌC
Male
ngành
thể
well
tạo
Name
Vị
Việt
kỹ
##ar
nhóm
sản
người
X
v
##W
tập
technical
Linux
2018
O
which
language
Office
m
###,
some
theo
thoại
high
This
tài
Thanh
Chuyên
Bachelor
##X
##responsibilities
##”
...
##ur
hiểu
Tester
##st
training
thực
cao
re
##to
use
Điện
##ion
##。
are
API
Javascript
From
cơ
##&
##and
kiến

cầu
Application
e
Làm
name
“
more
An
##et
Trung
muốn
b
##at
##net
this
W
##0
Tham
s
people
##................
High
Testing
phẩm
khả
Full
Quản
##el
##ra
Role
##J
##as
Đ
Research
job
Địa
activities
Major
p
Have
12
vấn
Excel
phòng
sự
số
Sep
documents
learn
control
chính
##is
do
##ri
make
như
Manage
Tiếng
tool
Create
client
##Q
##ment
Số
Thông
top
##oo
n
2019
module
những
online
leader
##il
professional
tả
hợp
products
App
##li
their
services
applications
tools
technologies
Oct
Tin
tasks
Ngày
##co
##1)(
##w
Service
từ
h
Tháng
chức
iOS
##ee
NĂNG
yêu
network
HCM
plan
Xâ
là
Mô
June
thân
KỸ
build
##cv
requirement
##:110)
Certificate
birth
create
##EE
am
manager
##を
thuật
Main
many
Communication
Thành
Google
HCMC
Skill
mới
11
Analysis
Build
2.
Kinh
##8)(
gian
trợ
Jan
based
systems
PERSONAL
##se
lượng
quality
##est
##NG
JavaScript
văn
Nguyễn
Network
điện
##?
like
Re
##11
Japanese
1.
##ll
Thực
level
##lo
##10
tháng
##time
under
##ục
toán
2007
đã
##able
will
member
##++,
##cc
##us
##iới
also
##ss
WORK
09
©
hỏi
users
it
Duration
July
##ce
##ii
doanh
##SS
Tools
##tt
bug
nhất
Level
##nh
KINH
Power
Be
SAP
ra
độ
##+
VẤN
Khoa
Do
Training
Gender
giải
##_
UI
me
NGHIỆM
VIỆC
students
hình
phân
##4)(
cáo
Report
analysis
máy
Using
U
document
l
dữ
solutions
features
quan
LÀM
dịch
bộ
tôi
##z
best
Center
was
##ac
tham
mong
Word
báo
##ha
solution
nhiệm
GPA
f
Eclipse
##IT
School
ability
you
##ers
đến
International
help
research
sales
thạo
reports
Marketing
performance
##=
clients
##:105)
April
Phát
Dec
bán
##に
Aug
program
##ỤC
Le
Code
đề
hành
Binh
Noi
Q
3.
trò
Ward
www
Nhật
Jun
bugs
##ro
Write
##j
##08
get
It
▪
i
##am
Contact
Degree
OBJECTIVE
Mar
when
d
pressure
implement
##ap
(1
2005
##09
Objective
Hồ
staff
Size
Department
##88
Reading
##ity
##MS
hoạt
Sử
môi
##,...
cứu
March
qua
##年
##CSS
##aa
trung
issues
THÔNG
phone
NGHIỆP
##03
##tion
part
Game
TIÊU
trị
Ltd
learning
lực
order
September
vào
Phần
Time
improve
##ive
INFORMATION
marketing
tác
TIN
##II
tìm
Experienced
##hi
th
thời
etc
§
tiếng
Nov
bằng
xây
##12
OS
No
Street
ERP
Tran
developing
office
Ability
Hệ
##me
Single
Services
August
2006
loại
thu
Jquery
Từ
##ance
status
case
Sales
g
##02
Control
Tốt
nhiều
Van
Used
##im
##・
khai
đào
##nn
Chí
##la
platform
Group
SVN
Core
Master
has
##the
##uu
group
20
##hh
Client
trách
Bootstrap
##CC
out
##ry
responsibility
tiêu
Vai
Thiết
Birth
cases
school
Basic
languages
AND
Japan
including
city
Knowledge
related
NGHỀ
Khách
##SQL
##ー
Tan
##13
Achievements
liên
Building
##au
viết
đồng
Now
15
##ter
into
CÔNG
##ff
Implement
##anh
khác
Cấp
Coding
Hibernate
thích
sách
problem
##*
HO
computer
##05
##tor
##ta
định
hoàn
##%
Hoa
##66
thi
##̣
bị
cụ
##un
Analyze
your
XML
Da
OF
##vi
##ti
đ
Can
##um
##ER
VB
##99
source
kiểm
##work
tư
##nt
##ang
##ad
kết
##月
functions
##ơi
##44
Systems
hội
ch
##up
able
one
Ngôn
##:104)
##:3)

Product
##ill
Responsibility
tình
end
##:11
điểm
môn
##per
between
Career
##mail
##55
Open
basic
maintain
provide
##:116)
National
Place
nghề
điều
problems
anh
ngôn
tử
SS
January
THÍCH
lỗi
them
student
tế
market
##/2010
Window
hóa
Thi
Long
##SỞ
UNIVERSITY
##22
03
##facebook
than
nhận
thử
nhà
model
##06
write
##mo
Th
December
##14
##nd
##00
01
lịch
mạng
department
Apr
CC
dùng
Đọc
7.
October
##Z
##ê
Review
Make
month
Analyst
Trình
Automation
Phân
Student
##...)
##of
xuất
how
email
##19
CURRICULUM

Tr
##TT
Văn
quy
course
Personal
##ex
##ON
Feb
##ve
##で
nội
music
Facebook
##IS
store
Python
##org
modules
task
0
Quốc
##age
core
##lu
##07
so
over
trang
VITAE
both
Hiện
##----------------
khi
r
tự
Trường
internal
QA
##te
##ge
08
##q
##pa
responsible
IDE
Object
ở
##ă
##:97)
##]
CH
Photoshop
Front
real
##ate
##ine
áp
##IN
each
##
Expected
Internet
through
Agile
Hardware
+84
##01
function
Nghiệp
tên
Tôi

present
any
CV
lương
description
HR
##qu
social
events
payment
##77
different
INTERESTS
vị
Khá
Tìm
Git
Cao
##ol
Professional
##nguyen
##5,
Cloud
##OO
Dong
Dự
Viết
##dd
building
java
Designer
##ia
hoạch
Strong
##ho
Bằng
di
Set
via
##/2017
Top
User
##MM
planning
solving
review
Worked
tâm
Ứng
become
tr
##33
co
##ist
writing
##/2016
##op
Duc
file
Lead
##と
##AL
Operating
##do
##16
[
Platform
##50
##ン
Jul
k
##15
Singapore
Họ
Pro
##ạ
##ma
biết
MM
Unit
##de
SUMMARY
Marital
##3,
pháp
developed

video
Bug
IBM
sư
Ajax
Quang
jQuery
chi
Responsible
November
Projects
đối
myself
Chứng
Program
reading
Corporation
tuyển
đọc
Learning
##/2012
##à
##ệ
tra
Member
Online
TP
Finance
ensure
site
##ence
Tool
TOEIC
base
Current
##PP
strong
Plan
##form
PC
##ary
Đà
##na
##:111)
đơn
hướng
##edu
##AN
##86
Other
##ai
Các
NGUYEN
various
Nationality
##24
##/2014
bảo
not
Solutions
Di
##SE
##ag
schedule
##90
Director
architecture
du
##/4
view
##́
Improve
Summary
##NN
devices
30
Industry

Thu
Tên
Use
processing
Ch
##:101)
##:1)
Most
TR
person
Apache
##23
##18
update
want
JSC
St
set
implementation
##04
number
##be
##store
tổ
con
TNHH
Thời
sát
Mong
16
Phu
find
follow
##app
##ver
##man
Developing
##ES
khóa
PROJECTS
coding
role
##ip
Nghệ
quyết
TCP
##ô
Global
VN
##ong
##AM
thêm
bình
Soft
JQuery
##gg
##2019
self
##EN
sở
front
version
Writing
##30
##ca
been
giá
DD
##io
##Java
##UU
progress
engineer
Teamwork
##ure
Scrum
organization
##AR
Security
analyze
interface
Recent
Pham
where
##for
Hai
##he
(2
Foreign
diện
Thị
De
##:2)
Advanced
open
##mm
khoa
tiến
##Đ
independently
2003
##ơ
##commerce
Tel
OOP
companies
class
Point
##log
##em
##pp
ACTIVITIES
Hỗ
##ne
##test
NG
bậc
hỗ
back
production
Consultant
Course
##!
##:6)
##ies
##ect
##tu
PROJECT
maintenance
ngày
đầu
sơ
Embedded
de
content
##ba
request
##ING
##ty
cách
main
##20
Perform
Entity
Jira
02
read
apply
Environment
Nẵng
Mức
TT
Ba
cá
quả
##/2008
##IC
Female
nhạc
university
Nghe
Solution
##/2013
android

within
managing
đặt
Tiêu
##84
book
##bo
##2011
TY
NHÂN
chương
experiences
field
##ay
##one
Having
viện
Assistant
lên
Prepare
Giao
security
##ial
##tic
##OS
automation
vực
thiện
communicate
quá
Duy
TRÌNH
Viettel
##25
##ut
Sinh
IOS
##elecommunication
Intermediate
##'
very
So
##po
Bank
Economics
w
pre
Ngành
##80
trở
##pt
Mr
February
##2018
presentation
##78
##85
##65
tracking
Hoang
now
full
meet
CÁC
Nghề
district
bóng
##96
assigned
##AA
current
##AT
CO
##________________
##all
Y
Year
st
##AS
##HCM
##70
##pro
thanh
##ize
degree
Hung
CMS
understand
worked
mô
meeting
nhanh
Faculty
Integration
who
event
Bachelors
financial
mình
14
Learn
##ting
JS
Te
Play
Developed
Provide
date
##68
05
career
hardware
Dist
check
##RR
##89
đây
gần
##CS
##:7)
##TS
##/2009
hard
xử
cũng
most
Link
##45
##con
processes
##­
##duc
##/2015
Curriculum
Internship
thị
thinking
QC
##64
##21
Vi
Angular
study
life
Du
lot
##:103)
nền
Music
Khả
■
first
DB
#
Planning
nay
script
04
understanding
Process
##DF
take
##ất
(+84)
giúp
BA
##32
##60
Trang
##gu
XP
fix
For
Managing
La
Nang
##ix
Join
##ân
##ru
target
hơn
daily
CNTT
Accounting
JAVA
##17
Maintain
teamwork
Institute
after
truyền
年
nghiên
##ỨNG
Source
Excellent
center
Others
point
list
lead
##ó
đó
nguyen
Assist
vi
bạn
detail
We
đi
##い
JSP
­
##rt
CAREER
phục
ĐH
##ổ
đá
##OR
##http
nguyện
chứng
##rr
##95
College
LL
4.
As
##di
dung
##DD
##RE
Key
Bình
Dinh
##ir
Digital
Fixing
post
##56
##out
##ga
Me
Quality
Staff
##り
SEO
Viên
Tu
##US
##js
Smart
##>
##ant
Độ
đổi
Social
##om
Z
##87
##play
always
kiếm
promotion
toàn
bài
quickly
SDK
##yy
##á
##/11
unit
contract
##ship
##yahoo
major
Tình
##mp
(3
##ig
Mai
19
day
VIETNAM
charge
tới
##
ĐỘNG
□
##lt
##inh
##54
em
Administration
hiệu
things
Hoàng
##ky
allows
##34
##CE
Study
Tho
2020
multi
PROFESSIONAL
đạt
đại
directly
image
Members
##ã
complete
##91
2000
##linkedin
ảnh
form
ngoại
documentation
search
tảng
##our
độc
engineering
Người
equipment
##lar
Năng
delivery
General
Go
##:11)
Tomcat
per
##sh
certificate
Nghiê
##57
log
contribute
##74
Qu
##TP
Struts
##line
Native
##bb
##rd
##:10)
##ian
Proficiency
Được
Title
##goại
##ni
Kiểm
integration
Vu
Net
##97
Mo
operation
##based
duy
Form
##な
Volunteer
creative
##が
Bách
monthly
React
ph
##ating
##let
06
Banking
And
##google
đồ
PM
Get
Post
##no
Adobe
##ful
nhập
device
Listening
sale
##ab
##ả
SKILL
works
Trần
ng
##ẠT
New
CRM
long
Utilized
nước
VIÊN
##36
##29
##:99)
##ED
##92
Access
hoặc
opportunities
salary
##:4
##26
SQLite
TMA
TH
##93
18
Of
##term
##vv
Execute
##63
every
machine
trực
location
during
hồ
tiết
Nữ
17
##over
bank
25
result
##ư
car
UML
##Android
Academy
Certified
contact
nâng
Trưởng
MongoDB
##し
##40
execute
2008,
##83
##tcpdf
Total
local
##ị
Đã
##ical
##DC
Enterprise
##ci
Ph
Vo
##go
Cơ
##ật
Tech
Skype
WCF
Stock
##LE
Local
books
##hu
plans
Travel
play
THI
##viet
cố
Vitae
Human
Năm
Domain
testcase
##ue
##os
##ME
##IP
Sex
Sale
shop
IN
##ONG
Media
we
foreign
Participate
Store
education
Ad
hạn
SOFTWARE
Optimize
MINH
IP
gained
##ot
standard
2004
##/12
##82
07
##í
##ise
##ization
library
Salary
Making
Take
teams
Tra
từng
##37
##ble
track
##ever
##bit
##vo
##/10
##27
References
##CO
Oriented
nh
##ọ
Self
AngularJS
but
Help
required
##ki
##35
accounting
cổ
key
##JS
Status
Confidential
lĩnh
8.
big
13
##ness
##社
individual
không
Architecture
##2020
cost
procedures
Phan
##son
##62
##fe
page
Read
At
##75
issue
##–
##ST
Phạm
legal
show
Xuan
kiện
VietNam
22
share
Swift
websites
manual
##48
##38
##ack
Dev
##apps
##iểu
Duties
Financial
Việc
dynamic
chất
Back
le
##47
Auto
Log
ưu
##ight
LE
月
courses
Win
minh
##る
DỰ
guide
adapt
solve
dẫn
##53
send
TRAN
##aann
##73
Ng
j
##ten
##は
dõi
would
Tổ
##tech
needs
map
・
24
if
##cu
our
COMPANY
Number
Wordpress
especially
Operation
ÁN
flow
employees
change
CÁ
##ice
##iên
Korea
prize
##ish
implementing
deploy
others
##han
results
pro
##ì
##é
TECHNICAL
international
II
##mi
##ieu
BI
##ability
Gia
##ối
##ifi
Tự
street
address
thần
##UN
making
css
##land
sửa
Electronics
Á
ĐẠ
feature
##tra
##fi
Bản
##code
following
##LL
##da
5.
##ao
partners
Administrator
cùng
duties
football
Mysql
cung
tester
industry
##69
###.
achievements
##43
##TV
media
dev
had
include
perform
##bi
VV
Fluent
nghe
provides
Tư
tổng
##Web
##ress
##hung
active
Admin
resource
##DB
##:8
##working
Activities
Scholarship
##ス
Club
Backend
Telecom
Part
○
##su
Qualifications
##so
reporting
##ec
##EM
care
thao
##:12
##AP
Machine
future
lớn
##く
studio
##github
##2,
RE
##und
PL
##ET
##side
need
##kk
Laravel
Map
##/2
Con
Asp
Programing
Ca
##ow
Lê
##ash
##31
developers
Vấn
multiple
score
Head
designing
AA
##ie
demo
ban
structure
##:7
##98
NAM
potential
built
layout
Programmer
With
##tri
##39
##42
Sciences
##67
##day
6.0
Fix
##94
Aptech
##ard
Expert
existing
Quick
backend
Pre
CERTIFICATIONS
##2010
CSC
##top
SMS
##79
Databases
employee
##va
##ner
LinkedIn
US
##学
Province
feedback
Intern
Expertise
Assignment
internet
chủ
helps
##referred
##:10
Ruby
giám
##PA
travel
khá
##:117)
Problem
small
mọi
##する
Đức
cuộc
##52
much
##NH
monitoring
##~
##eerr
26
##nngg
##Vietnam
##Manager
call
tinh
##59
run
##rở
personal
##2006
trì
sẽ
dài
WORKING
su
Selenium
listening
expert
Là
##EC
know
##iết
##58
Nghiệm
Applied
two
add
##eeee
##ave
effectively
place
html
Giám
games
##my
##rs
##28
##fa
HH
functional
Communicate
chuyển
góp
insurance
thương
world
kê
##UT
>
##ung
they
##ual
##̉
NGUYỄN
Scope
phù
Executive
Trade
danh
SƠ
đang
Asia
Tân
##81
##76
##EL
##web
##uch
##ock
Speaking
release
Danang
kĩ
DETAILS
Linh
Foundation
##van
REFERENCES
TV
##46
##lecommunications
##point
supporting
##Ho
departments
achieve
Architect
programs
Category
Cisco
buy
nhật
EE
requests
End
##port
no
Chức
tour
consultant
##đ
specification
contracts
##mb
ý
mua
Duong
xem
Grade
Understanding
##ite
23
##ua
materials
##Work
##2005
##5/
Task
Im
TECHNOLOGY
background
tax
lưu
Active
##OL
these
Điểm
—
VI
then
##Non
##51
candidate
Matlab
written
phase
Graduated
On
##ổng
procedure
term
##pi
##ling
Experiences
##tr
large
Dr
Candidate
Industrial
Proficient
analyzing
##❏
thuyết
chịu
LANGUAGES
##bu
SharePoint
mà
handle
Hi
##71
PH
comp
##À
EXPERIENCES
Award
AI
excellent
opportunity
prepare
final
PowerPoint
ký
access
Law
Ngoc
embedded
Giang
sau
Ninh
Son
##-2013
##UI
~
##MA
##SP
components
sub
##HTML
ST
CHI
##thanh
Str
jobs
give
Inc
Samsung
hôn
logic
connect
its
##minh
##ake
##:12)
##AI
7,
allow
goal
##:115)
Organization
template
vận
JSON
##tran
Trong
Setup
##ities
##thi
##ear
Applications
##uc
He
##VN
CP
##che
##ア
##大学
THAM
xã
Able
27
Consulting
resources
##gi
keep
##ber
DO
##ated
##ph
##ớ
People
Period
configuration
quốc
thiệu
Giải
before
contest
phim
programmer
##soft
6.
NodeJS
##SC
##ID
##hoang
Multi
IIS
##ổi
monitor
##tttt
##:109)
##SA
HOBBIES
Module
challenging
warehouse
Married
Tạo
PostgreSQL
Location
brand
Home
##-2014
link
cả
##BA
implemented
side
##ations
##1993
_
##-2015
##:9)
NH
##with
maintaining
Joint
##̀
kho
involved
Frontend
Hoàn
##CP
##by

cloud
##/1
line
Cau
##wa
Ubuntu
AX
##SD
##ify
##Project
##Native
AJAX
Associate
resolve
trạng
##書
Logic
domain
##eo
tương
Conduct
SEP
##CT
##art
willing
##vu
##nc
Add
Electronic
##ase
old
##har
Search
##UX
Drupal
budget
volunteer
đốc
creating
auto
khiển
receive
10/2013
Sư
##TI
goals
Cử
Networking
news
21
##COM
board
home
Quy
Presentation
studying
HA
Ex
doing
Install
senior
##<
đường
display
sức
AWARDS
##details
cycle
##/5
Đồ
BB
##â
Sửa
##Ế
##using
Designing
2002
##ile
algorithm
##design
##ベトナム
Computing
Graphic
đảm
price
tiền
chăm
deployment
tran
##ại
weekly
Portal
French
##DS
##oooo
Being
Jobs
mail
MSSQL
##TC
designer
##ien
man
Check
##1995
##人
Graduation
Hobbies
lớp
province
science
Video
Event
Requirement
interview
recruitment
stock
##box
ex
giới
chơi
itviec
Hard
Mac
##tel
##NNGG
##Viet
Insurance
hòa
providing
Tiếp
##開発
Teaching
CHỈ
Lab
thư
next
Electrical
Sở
##75)
xe
##Mar
suppliers
3.5
Sy
operations
7.0
##OP
##ket
kh
##41
engine
Tp
##project
kỳ
##system
##phone
trước
ngân
chat
account
##....
##72
##ăng
##ous
##ài
PPrroojjeecctt
php
##hai
Sa
##Test
##ộ
banking
##uong
##oc
##SI
nghi
##て
TẬP
exchange
club
sáng
Highlights
Flex
xếp
luôn
đăng
Corp
friendly
Performance
Production
SD
looking
Your
##ep
Mathematics
(4
##phan
##ments
##ễ
##/3
##view
Document
Function
relationship
GI
being
Football
Muốn
Xuân
strategy
đẳng
Github
javascript
Thái
HP
lại
cần
Dương
##Bank
##base
Tài
Sharepoint
##CI
Huy
AP
Cong
try
NN
##ok
##ATION
##ool
Kế
##名
##Í
Html
complex
dồi
##ware
great
partner
Tập
##日本
##TECH
##ich
Thai
##Co
techniques
Understand
##1991
hand
##CH
##user
##print
##her
scripts
##ster
DEVELOPER
children
Triển
Redis
đánh
portal
Phong
##Design
mê
All
sure
ad
Interests
##ger
join
orders
Phú
##:112)
##HH
administration
lũy
proficiency
scholarship
transfer
lạc
Loại
Update
PHẦN
Quận
important
LÝ
fast
Tích
##iinn
##oriented
##1996
##ally
Bo
Tri
love
deliver
load
##tuan
ro
##NT
##tain
##In
passion
card
Class
trưởng
ABAP
phép
Australia
Image
law
Lý
##:18)
Model
4.0
##ỗ
Fresher
scope
apps
mo
##:5)
Kim
##oorr
dis
ideas
##ors
##rate
CS
PP
##ông
Saigon
appropriate
necessary
patient
cuối
kind
mại
Become
##/2007
Achievement
operating
##ssss
##que
Cổ
##old
India
##MP
Big
Real
Officer
##each
##ột
##RA
Certifications
##-2012
Market
organize
phố
##page
Deploy
##-2016
ĐỘ
possible
##✓
installation
workflow
available
mục
##日
##
Giay
##ade
graphic
##amp
##/7
28
quảng
##BB
##fl
##ted
‘
Configuration
approach
##も
ngoài
human
Thích
export
Boot
Detail
cử
Resource
Sơn
##red
Informatics
##LinkedIn
##Mobile
đáp
own
Đá
Se
GIA
Reporting
Đào
Designed
##hanh
custom
##ide
đội
##Ph
POS
staffs
##use
##ign
effective
##hăm
HÀ
##ト
##Commerce
Branch
Diploma
Natural
analyst
benefit
general
better
Creating
value
Rank
ReactJS
several
Đông
VÀ
##iiii
Thang
protocol
##ft
Cầu
##RI
Script
forward
##hịu
012
##nder
Processing
Quan
LTD
soft
Man
Special
BACKGROUND
Exchange
Familiar
Follow
community
decision
gồm
optimize
Hòa
camera
phận
phương
Mail
Đến
##400
pattern
mã
##lay
Sun
according
//
done
Vinh
Public
##stack
candidates
En
##nam
##kh
##End
##thu
ho
##gõ
Dang
VAN
Lam
PO
##ình
Al
##/1994
##eg
learned
##BS
##hoa
Expectation
enterprise
suitable
này
audit
sóc
Junior
running
Firebase
##ccoomm
Built
Nhat
Servlet
method
50
##aking
Phuong
specific
special
Theo
WPF
##ương
Case
friends
highly
way
KH
##SM
8,
##ton
focus
##OOP
Car
##イ
Crystal
message
Rails
sense
upgrade
đưa
bring
12/2016
##IO
bill
##data
##game
Php
##cial
##_______________
UX
##apple
Negotiate
##mu
##Â
##cr
driver
provided
##USD
networking
##ct
##ck
Monitor
##fit
go
details
Viễn
public
while
đạo
Guide
Ma
backup
nối
record
cover
##VA
##ick
Implementation
ANH
2.0
##:87)
te
global
Functional
Nh
##PHP
power
##cy
Sql
Sen
##YY
PR
un
##force
##DA
##TH
đúng
##
together
what
Find
chạy
MySql
06/2016
2001
##quang
Netbean
Month
##bank
Book
designed
##Last
##ển
##:79
##ên
experienced
One
3.0
LANGUAGE
##ữ
analytical
giỏi
WEB
CEO
Cell
Specialist
Ngân
thủ
JPA
Handle
##fpt
##aall
USA
##ron
##:76)
VND
Bi
##val
##ts
##TA
LAN
ARM
##Pro
collect
assign
stack
ID
##avi
##eevveellooppeerr
IE
##会社
VIỆT
##ƯỜ
HISTORY
competition
cứng
semester
short
quận
convert
##ld
Seek
QU
chế
meetings
AWS
tối
Tuan
algorithms
##hoc
Joomla
Ty
##atch
##た
Limited
##日本語
Supporting
##chi
##server
facebook
##ui
type
##zz
##gh
Created
period
tượng
simple
risk
Manual
nhỏ
dành
thuận
exam
growth
##ế
successfully
1995
were
10/2010
khí
Exp
Ki
(5
Magento
Health
visual
Direct
Zend
First
ba
mang
xác
##ợ
##ẦN
GIT
gi
REST
##ood
##2012
##tric
##duong
Or
Visio
free
##ôi
gain
29
methods
import
Redmine
history
tịch
đặc
France
cross
promote
Board
Contest
Truong
Some
KK
Leadership
##hang
Css
rules
##2013
SA
PLC
Br
##going
files
##month
##site
##hieu
##llll
##:74)
News
room
##ụ
##ke
##ẢI
USD
##ext
##ước
##ル
bắt
conference
nhiệt
Đạt
THỊ
only
State
Thesis
dân
Báo
Recognition
troubleshooting
Engine
programing
##ions
##ture
IELTS
servers
VIET
Participated
##ring
View
Apply
##hơi
##"
##Software
Quá
platforms
Tinh
##jp
2016)
094
enhance
##tin
##IE
tt
##ỏ
##して
LỊCH
OTHER
chuẩn
colleagues
increase
Maven
MAY
rõ
##ka
Đình
##Server
train
10/2014
096
##dung
##ud
đóng
##tation
live
se
##SAP
Free
Pa
fixing
##FF
##aamm
##DE
Cam
js
##RS
##FC
##OT
Successfully
digital
infrastructure
THANH
##経験
##The
Interface
paper
thế
##PL
setting
Hải
12/2015
Khanh
10/2015
(7
SE
...)
Nash
III
##Intermediate
##61
##,...)
##ENT
##3.
##ious
leading
standards
booking
##way
##-2
##air
Am
Collect
success
PRESENT
PROFILE
external
inventory
Flash
TẠI
After
##した
Green
Phòng
nguồn
Robot
mở
##ku
Thuật
Payment
closely
VTC
##84)(
##rap
##ION
##PS
managers
Tien
##:70
challenge
Vina
Run
Receive
Nai
Monitoring
##reat
##mark
##lin
includes
##Scrum
Lu
GUI
##media
##mobile
##tan
##QC
##year
DI
##ising
THE
khó
License
culture
easily
relevant
strategies
Connect
JIRA
##phỏng
Preparing
DEV
##こと
ổn
HỒ
1992
mức
Xcode
frontend
Tracking
speaking
10/2016
##uit
##ak
Khảo
Po
Reference
##list
##áy
Jenkins
OO
Coder
player
admin
##ếu
##RT
Hong
##App
##300
##ized
##PM
##HO
Su
Ro
huy
##Kĩ
start
goods
ADDITIONAL
EEnngglliisshh
abilities
publish
speed
đoàn
excel
verify
lâu
##hỏa
##ain
smart
Powerpoint
setup
Vũ
12/2013
whole
SRS
10/2012
Internal
(6
Maintenance
tri
screen
JAN
port
conduct
migration
##part
##2015
##serv
2010,
changes
##huong
##ana
##shop
2015)
his
Best
Bach
master
##row
##mis
##ko
Thuy
provider
##rrrr
##ngoc
##:44)
phụ
##IÊN
bao
NGHỆ
Ngọc
circuit
purpose
spirit
applied
Toeic
##viễn
Không
internship
configure
careful
ISO
Coordinate
CCNA
lí
OCT
Fair
Yii
Hue
CỔ
##mod
##ther
##CD
##ến
ca
##/1992
errors
##we
##AD
##2004
##Supervisor
##Word
Custom
##load
##ier
##tro
##ây
HI
2017)
##ải
listen
##iti
Train
##FI
##uyen
##き
##‣
Nắm
jquery
policies
sắc
Very
layer
0168
##Com
More
ADO
##0000
##iving
integrated
Và
##CAD
##Á
##ris
specifications
input
va
##:20)
10,
Notes
Stack
##board
2005,
##Developer
##hot
##TM
##ves
Gi
##ef
##ừ
##FE
##ũ
phí
đa
Thống
activity
mặt
##や
##行
Convert
advertising
desktop
bàn
same
letter
Structure
enthusiastic
##frame
Xếp
browser
Node
relationships
Hotel
Provid
##pr
##late
ticket
Certification
##92@
##Có
consulting
Tax
thesis
Khác
khoản
##ử
sống
##tho
0166
par
##ứ
##thay
##ます
win
Act
ME
##huy
##uôn
##Ị
Harvey
##入
##−
Liêm
Result
administrator
restaurant
tuyến
TRUNG
download
health
Partner
Know

upload
09/2014
Mỹ
Đồng
##thread
chung
trip
##NA
Biên
##ời
Ly
Air
##nnhh
APIs
##Th
##CV
Dynamic
World
##);
completed
Em
##mit
Express
Content
##án
##ái
windows
##Data
##:100)
##RU
##To
##2017
##PC
AN
##@@
establish
records
##ận
art
##ました
##sheet
##システム
##管理
##mmaaiill
Assurance
Library
YẾU
commercial
correct
effort
thảo
Short
LINQ
##れ
##など
three
Profile
06/2015
##tronic
cập
nhau
table
08/2014
##4.0
##ium
sang
ward
google
onsite
##ASP
chỉnh
researching
##...............
object
electronic
Tasks
##ute
##......
##8)
Life
1990
##pack
Unity
Ban
Kết
trau
Traveling
khảo
##2007
##/6
##fr
profile
##View
##ạch
##Trung
##Tech
##book
HD
right
AT
Sept
##oli
##ÌNH
##ク
##UYÊN
generate
##国
Teacher
What
Legal
Willing
Nguyên
Applicant
outsourcing
Independent
held
thường
soát
chiến
luyện
Viện
Freelancer
##-3
Malaysia
##hong
non
around
2.0,
Start
practice
##ler
Quảng
Phụ
see
Implemented
objectives
##source
##tien
##cho
##SSSS
##software
##MENT
##king
practices
edit
Si
images
Account
##-2011
Over
challenges
points
##Ạ
1991
REFERENCE
integrate
##ạn
##ug
Healthcare
TRAINING
industries
organizing
proposal
Hưng
finance
Bảo
Ensure
eager
Talent
Telephone
dưới
hotel
handling
thuế
plugin
assistant
leadership
tăng
learner
câu
Math
##ảng
##men
enhancement
giáo
100
##mar
##BO
##FS
Pattern
package
##EP
managed
Unix
##ons
host
##ách
vui
##mt
TTee
improvement
vu
##link
##BI
cc
areas
accomplish
area
##Windows
##フ
##要
##̃
having
practical
##タ
##卒業
second
select
VNPT
Mantis
##,000,000
interpersonal
##-­‐
Suite
##:80)
EC
independent
06/2017
third
##atic
evaluation
##iinngg
Chính
environments
FOR
1993
(10
inter
##vis
##1990
u
##matic
##:50)
sites
40
defects
nhu
Hoạ
##script
Bac
##aaaa
Đi
##ậ
organized
##xx
(8
##can
Managed
##cap
deal
##会
Micro
Analyzing
Bắc
countries
execution
lợi
optimization
địa
Với
##itunes
MMiinnhh
RESTful
##òng
##ộng
Testcase
03/2016
##100
##uuuu
connection
Well
Analytics
##IM
Frameworks
##1989
frameworks
Bao
##2009
OBJECTIVES
Hand
lab
groups
##:13)
##EST
TO
TThh
applying
##:58)
##html
##si
Đa
33
##8/10
pay
500
CERTIFICATE
HONORS
Switch
chữa
identify
investment
MVVM
Load
##1988
##vietnam
food
giữa
tức
##:123)
HIỆN
Look
UAT
09/2013
Pass
09/2012
Tính
File
graduated
##át
##ios
FF
Chrome
needed
Site
construction
##ngo
interest
Bui
##務
German
##ần
subjects
##Ex
Comp
finding
Dai
##place
##pham
##ươ
Researching
look
##ATE
Base
##learning
##rree
discuss
Implementing
CCiittyy
Estimate
Khóa
Outlook
VĂN
cấu
gửi
revenue
switch
utilize
Always
NỘI
bày
Nodejs
Nhà
Thương
thận
tô
##Comm
Youth
05/2014
sẻ
here
Completed
##NS
PSD
JSF
ô
fields
đam
word
##round
deadline
##1987
##non
mark
Bu
Awards
week
##CL
dựa
sell
deadlines
there
##nnnn
Got
##word
##ww
##Advanced
##MVC
##Ltd
##manager
statistic
photo
install
Khu
##ò
##win
##ms
enable
detect
##仕事
##ジ
remote
Message
across
responsive
vững
Chinese
chọn
KHOA
tuần
annual
easy
query
KPI
la
shopping
##Lo
Adapt
tỉnh
Lotus
RMIT
chance
aim
VNU
Vision
##lab
##Soft
Investment
Vap
studied
Material
MO
##less
その他
Beginner
##unt
##ative
##hien
Playing
he
00
##MySQL
##een
##FPT
31
CI
##ƯƠNG
##職
##客
Giỏi
Intelligence
Ministry
Warehouse
condition
Dịch
hết
##ん
obtain
CSDL
South
CLB
Construction
Accountant
Recruitment

text
####
##raw
##dinh
GPS
12/2014
##IG
DEC
Hien
##express
##生
assignment
##truong
Dung
confident
##arr
truy
successful
chia
##9(
##123
component
PIC
##API
##gen
Bugs
##thuy
Shop
1994
CA
##dev
Port
phong
##Unit
addition
##Team
##live
mini
##Code
face
Inter
NA
##ề
Ms
##tuyen
##IST
##May
##---
Type
Nhiệm
hospital
improving
lắ
sắp
nói
Prize
retail
Toàn
hiến
##内
Score
Nhóm
QUÁ
Phường
trẻ
Trainee
mạch
0164
09/2015
##ởi
##og
##meter
Germany
##cate
##âng
networks
Art
##200
cam
##IL
##sales
##ux
##ract
Gain
got
vision
###)
unti
bảng
##lam
Call
##duy
##áo
##SOFT
Organize
y
##cause
1996
Netbeans
##Ơ
##hiên
##ITY
##dang
##Ứ
en
spec
register
Amazon
Feature
attitude
believe
regulations
above
Docker
Desire
Restful
robot
chưa
Travelling
reduce
##upon
deep
match
0169
biên
##です
mật
Lương
logical
THU
seeking
##lan
fund
air
##ầu
##izing
Korean
IV
##bk
Order
1989
teachers
##vt
##drive
##star
playing
Lang
FI
##5/10
Mon
##ree
##months
##University
##house
##:68)
trú
##mon
##new
Resources
##:160)
assist
Azure
Browser
Retail
advantage
delete
flexible
ngắn
regression
##
##話
EJB
common
##しました
Employee
##native
Yên
could
vẽ
QUALIFICATIONS
Controlling
SOAP
move
HỆ
grade
range
##quir
Intel
Chief
note
drawing
##:29)
watching
Text
##:72)
advanced
DMS
Starting
##ward
hoang
##Kit
pham
##83)
Reports
##pppp
format
technique
material
Fax
##hủ
Platforms
party
Card
##light
##DM
##LS
##tier
##PRO
##ập
window
##VV
##solving
##level
##motivated
##study
##down
##|
##iền
##AND
##file
##ories
##read
clear
quick
##ĩnh
Ton
##か
DEVELOPMENT
EMPLOYMENT
Mobifone
Normal
SCIENCE
Standard
THÊM
introduce
nhằm
propose
##チ
quý
Mạng
bè
Huynh
functionality
gắng
##trung
mois
Daily
AD
director
họp
prove
Kh
motivated
##:27)
tục
demand
câ
##xuan
##ina
DA
##:19)
##get
##uni
Investigate
api
Algorithms
##-2017
ATM
Tam
Day
rate
日本語
PA
##ale
##gate
##service
Collaborate
họ
days
##flow
sql
2003,
##world
##System
##VB
##6,
##team
##ま
architect
##歴
visit
##事
CONTACT
Giấy
History
Physics
academic
corporate
diagram
command
còn
estimate
sensor
Target
Version
capture
debugging
About
TEAM
##所
Keep
##back
Fast
98
contain
06/2014
nên
made
ĐÀO
Communications
08/2016
efficiently
near
signal
vật
specialized
CMC
Mother
12/2012
accounts
##EF
##-2010
phối
delivered
joined
cause
CITY
Phố
given
Gu
selling
GROUP
##め
Hành
9.
##mmmm
persons
##cong
##php
supported
##gia
concept
##ken
##Chi
without
##loc
Ham
Star
##ature
##Jan
##業務
##GG
Hàn
wide
9,
Dynamics
##HHoo
Consult
##ưa
##397
##ỹ
Graduate
0165
##0)(
Sp
##Javascript
##itviec
##Intern
linh
##大
Campaign
Conference
Define
HANOI
Organizing
Summer
bệnh
negotiation
traffic
Creative
##set
Blue
NOV
rất
##ủa
Bán
Ngo
serve
Hospital
native
deployed
included
exp
quán
Wa
tranh
##:784
##low
##lat
campaign
transaction
##ology
##pre
##hr
AC
##https
##ể
MAR
finish
##Link
Up
##/01
##build
##cycle
Tiến
##って
##ら
##リ
Average
Solving
corporation
discover
estimation
policy
prototype
tưởng
yyeeaarrss
đoạn
##➢
TẠO
just
money
##用
##さ
notification
Salesforce
Birthday
giảng
thật
taking
##mmeenntt
regarding
Yen
1999
##IVE
Certificates
cảm
##bui
List
11/
##2003
##fb

define
Ext
##mart
uses
issued
##CN
Logistics
Learned
Modeling
Controller
##off
097
##～
VNG
(2015
Highly
Postgres
##6681
improved
Gains
##ÂN
profit
higher
##sen
##tional
types
require
Uni
##les
##Servlet
##Spring
difficult
relation
##法
Establish
Infrastructure
Olympic
Polytechnic
THƯỞNG
advice
biệt
distribution
recognition
##電
repair
##者
##現在
##言語
consider
certification
MVP
AUG
Resume
yếu
step
05/2017
0167
kênh
cận
01/2016
phải
11/2015
Prof
cash
save
Xem
trade
##:67)
##iki
Cho
##ức
ham
Line
organizations
nam
fixed
offer
Cost
##ủ
sent
United
EX
Ky
##RP
##Fi
suggest
4.0,
##として
direct
HN
GG
Students
customize
patterns
##if
##Ộ
##Ô
##BBaacchheelloorr
Academic
CakePHP
Codeigniter
Commercial
Community
Laboratory
Methodologies
Thắng
compliance
credit
instruction
mạnh
nắm
positive
supervisor
variety
Đẳng
Định
đấu
computing
mỗi
biến
When
since
animation
Rational
Agent
##から
Solid
MCU
thẻ
HOANG
Final
vẻ
PPhh
bên
Assembly
11/2014
bổng
ghi
60
award
EDUCATIONAL
purchase
##ART
Bien
200
##nk
UK
(2014
chí
2014:
Dien
Hồng
##500
##huynh
##:121)
##900
##sale
Sau
subject
defect
action
##ánh
(2013
VO
Maintaining
##xy
transactions
2018)
##uk
ĐĐ
38
##LIN
Patterns
##ception
##khanh
##Camp
participate
Attend
##ẻ
models
##put
Details
##mai
##ram
grow
##私
TUYỂN
confirm
launch
AIESEC
Illustrator
Inventory
Notepad
THÀNH
amount
badminton
critical
virtual
Socket
official
sharing
nghĩ
##シ
CyberSoft
Notification
Desktop
must
debug
Thailand
##group
rộng
##‘
##Jquery
outsource
##from
thăng
05/2016
##ze
overall
interaction
Draw
Advan
blog
##11@
stakeholders
0909
timeline
Dreamweaver
interested
info
##space
Contract
##..)
forms
##dat
questions
khu
##ike
forum
station
controller
style
##ONE
##QA
##lock
##1986
How
Sports
idea
##PER
##2016
"
##but
##sport
descriptions
Che
channel
Try
##try
thứ
##Ệ
##:49)
Virtual
##理
##ド
##ẹ
BẢN
TRƯỜNG
Troubleshooting
graduation
libraries
telephone
##市
THPT
answer
film
##け
CChhii
Bosch
Park
automatic
communicating
coordinate
khoán
Điều
bó
thúc
Gameloft
automatically
Brand
stage
VPN
Union
Years
Perl
agreement
đô
##/04/199
##Plus
Specific
##LAN
ext
USB
##Kiến
##truc
Tru
##sw
##:69)
##minded
trao
roles
##him
##not
Thư
##TIME
##.000
objective
Geo
MP
Send
##=8
PT
##mag
##ency
##TL
##table
AS
VP
##93@
viê
##IỆN
##--------
##iitt
submit
##Bùi
##OẠI
Discuss
FOREIGN
Hadoop
TESTER
analyse
enthusiasm
mẫu
strategic
survey
sẵn
##員
máu
dạy
desire
LinQ
continuous
##ERP
##学校
Specialized
Châu
sign
Change
manner
thưởng
QUANG
reach
block
05/2015
chart
04/2016
Hội
##ica
cài
box
##Professional
among
11/2016
Delivery
##/04
1998
Symfony
along
evaluate
Joined
##2000
##:45)
##EERR
NTT
##inter
boot
Per
##1984
##BT
##ACH
channels
offers
##hn
##sis
SG
##ump
1.5
##No
##PR
Networks
##llee
3-
Enhance
##/01/199
Drive
Mobi
Advis
JUL
##cultural
Activity
COMPUTER
Corporate
Deputy
ENGLISH
administrative
behavior
enjoy
methodologies
productivity
queries
VMware
chóng
diễn
Nortel
honest
balance
Translate
title
Subversion
Swing
path
##:1133)
preparation
Hiep
output
TTrr
thách
sâu
Mode
Gò
Huong
Doanh
##self
passionate
##“
##Nguyen
##Website
Tế
Finishing
2014)
mm
login
Tại
##count
Phúc
cm
SOFT
Currently
(2018
terms
Besides
items
##:85)
Checking
cư
VS
SU
movies
##ELE
##tim
Box
##LAB
FA
come
##91@
##linh
xin
##ara
##óm
packages
##desk
CAD
##phuong
##ờ
Môn
ích
consult
##HAN
oriented
##doc
##Ố
Deliver
đà
BK
##Xử
Photo
##è
effect
author
million
##上
Robert
ENVIRONMENT
aspects
familiar
filter
should
storage
strength
xúc
(84-4)
relating
soccer
##科
tongue
thuộc
rank
##az
Quoc
LÊ
tiện
Deployment
03/2015
08/2013
Workflow
##/07/199
JUN
##ý
PHAN
09/2016
direction
họa
Participat
efficient
participated
nơi
9/2012
Sub
##Linux
##English
##functions
##ợc
streaming
house
##107)
accept
##ray
Tay
##Nam
##tre
##95@
calls
sports
##gl
##vina
##ồ
Supervisor
DS
(2012
##-1
##hel
##AALL
HRM
Gen
Asian
##3@
##protected
close
##tai
##hắc
Transport
pass
Info
##ession
##Ấ
Method
further
##英語
##®
##THỰC
Protocol
Request
Responsive
STOCK
Twitter
accumulate
family
offshore
##味
##役
Draft
Upgrade
factory
Mềm
Migration
TÂM
##よ
acquire
sector
hope
##担当業務
trading
single
Configure
##BANK
Multimedia
During
Lecturer
head
chỗ
printer
cộng
Toán
Specification
##日本の
##sql
##long
Knowledgeable
5:
DNS
may
vệ
KHẢ
trúc
9/2016
dục
##search
##Business
##Oracle
##Technology
##MG
Vice
economic
##free
Qua
college
##2008
Thien
NetBeans
helping
##-2008
##Dec
matters
Lên
Phuc
##EX
Wi
##eat
Nga
Honors
chu
Kho
##7879
Sea
campaigns
interests
##2001
ICT
##iện
tickets
##thang
##graph
##1111
created
##Ổ
##ường
##ification
Frame
##レ
##オ
JOINT
President
coffee
distributor
expense
respect
##文
Agency
HỘI
verbal
oracle
teaching
KEY
NGOC
Push
voice
Bonus
those
offline
clean
hours
NIIT
FEB
Truyền
Firefox
agent
produce
Phương
07/2015
Winform
04/2015
##quoc
##water
##Involved
##face
##iinnhh
put
03/2017
##TTTT
Vận
mối
useful
##Develop
##Layer
Integrated
12/2017
Setting
Products
9/2013
9/2014
Care
##iêu
##direct
##Technical
Lan
##scri
##998
Demo
If
Live
##ạp
##ooff
##UE
2019)
updated
schedules
graduate
light
Nhu
giai
##ada
Ko
-------------
error
scale
##tance
0988
##ích
CT
Note
weeks
FIS
##kim
objects
##6/10
##合
##pay
timely
players
##•
Hàng
mode
arrange
##IITT
Freelance
Europe
##other
##ラ
â
##エ
CodeIgniter
Firewall
Thạnh
Tuấn
Wireless
calculate
concern
khỏe
lấy
manufacturing
purchasing
DHCP
Fundamental
cạnh
##情報
Credit
Hóa
talent
luật
Coach
Silverlight
tutor
efficiency
initiative
methodology
##fluent
Ngoài
Nhận
##Nền
expertise
trữ
Owner
proper
01/2015
Tutor
01/2013
controlling
Bưu
mysql
sạn
##clip
âm
bất
##index
Dept
##FX
Thuan
attend
6/2014
cải
China
Nguy
căn
intermediate
##Aug
trends
Booking
detailed
Scripting
##:89
600
##gan
recommend
APP
##1@
sending
Economic
Honor
Not
##bot
##---------------
checking
##unit
##eett
xa
xu
##2014
Sport
##OK
Games
35
$
+849
Listen
##lite
##ah
protocols
##1.0
##語
##ナ
##≫
##グ
##Ă
Transfer
##SSooffttwwaarree
Competition
Gateway
NNgguuyyễễnn
POSITION
Permanent
THUẬT
faculty
government
private
python
##数
khăn
Soccer
##機
##Bridge
##能力
Cross
Microcontroller
Tâm
JOB
DevExpress
reference
Ô
latest
thập
Produce
startup
Deep
Out
##uyện
##INE
another
##/05/199
Trinh
biểu
Food
chip
0903
##AU
dist
Complete
##*********
Next
##eenn
highest
currently
##:25)
##present
Tre
##Aptech
received
##EEEE
##leader
TB
git
##rch
##999
##IES
(2016
Chinh
medical
##rew
found
businesses
micro
FR
##main
TOP
##õ
##last
Bus
Pos
Algorithm
##He
##bao
##nv
##769
VU
##Vista
Love
##case
##vailable
modeling
##ính
gắn
##中
##Ø
Analyse
Communicating
Coordinator
Kotlin
Practice
Relationship
SCHOOL
SERVER
cực
nghỉ
payroll
regular
scientific
supply
swimming
trọng
claim
tòi
modern
nào
quyền
socket
Bóng
microcontroller
##だ
Query
Editor
fluently
HTTP
NGỮ
Centre
proactive
photoshop
MYSQL
friend
07/2017
Backup
dễ
TPHCM
cảnh
nếu
session
ACHIEVEMENTS
van
Chart
nổi
Chau
ETL
BE
stable
##tive
##Issue
##âu
##90@
low
##ỀN
intern
Bài
##platform
##process
##Programming
##Online
##Mail
##Store
4.5
##isa
wordpress
HOA
##syn
##reci
300
hoa
##tag
owner
##huu
##members
098
Light
##ication
chain
tải
parts
BR
##AAAA
##89@
BU
##nova
depend
last
##dao
MY
Bà
Assign
##ッ
##業
##プ
##お
Proteus
Schedule
##bridge
Characteristic
Diagram
External
HHỌỌCC
Introduction
PHẠM
Regression
Securities
Statistic
assurance
dedicated
determine
duyệt
khuyến
scheduling
Đoàn
LEADER
Storage
Verify
##実
##central
OpenGL
country
personnel
Camera
Meeting
9/2011
MCSA
oversea
Trading
Liferay
Quý
classification
PPHH
Ngữ
Chưa
interactive
xét
Device
hà
sàng
lần
discipline
06/2013
##00.000
lược
dư
##plus
Thơ
SSIS
Red
Rose
audio
Fsoft
raise
##right
##Sep
8/2014
Researcher
##OOD
##cle
Sơ
SIP
called
##Oriented
##$
stream
##CCCC
##binh
collecting
state
##corp
##phi
##Oct
株式会社
##94@
1000
operate
##lot
HUY
##grad
Chu
##eedd
##Base
Chat
##khoa
##272
Studying
##phong
##ban
invoice
Interest
##MO
##Win
8.1
##5%
You
Arrange
##:4)
fee
think
tech
ủ
##ẽ
##Ý
tín
##担当
##uộc
##希望
##ハノイ
##目
##Principal
##ム
##Ể
CHIẾU
Component
Private
Spoken
availability
bootstrap
ensuring
entire
extension
impact
qualification
response
##級
Relations
Sai
WordPress
vọng
secure
telecom
##あ
push
CentOS
Thank
national
story
Microservice
talk
Handling
fact
travelling
ăn
thầu
PHAM
Phuoc
motor
07/2013
Friendly
Exam
07/2016
Under
SASS
02/2016
Võ
Motor
08/2017
##aanngg
labor
##áá
##DO
Documents
hay
Luong
##cam
DOB
Tây
##:46)
Based
Translator
Động
Deal
organizational
Supported
dealing
##Service
(2011
Nay
##Build
##Application
##UML
##·
##related
##JavaScript
##CRM
##Quản
comment
vendors
engineers
DBA
1988
##Networking
DUY
requested
Chương
##mobi
##AANN
structures
traveling
Tele
##NNHH
0983
actions
##room
##goo
##ook
pages
1997
##Duc
800
bá
##css
##273
6.5
##tv
##name
recruit
Finish
troubleshoot
COM
##vit
trả
accurate
##プロジェクト
interact
##こ
##peak
##働
##計
##み
##マ
##スキル
##】
##Ọ
JAVASCRIPT
##WORLD
##hibernate
##portfolio
APPLICATION
Assess
Committee
DỤNG
Huế
Institution
MANAGEMENT
Payroll
Pháp
Studied
Trực
completion
giấy
khẩu
phạm
preparing
satisfaction
securities
sociable
gateway
translate
Orcad
Weblogic
Dream
Đơn
##youtube
##後
electrical
##0,000
Movie
Petro
Accomplishments
turn
Redux
##shoot
giờ
actual
ASIA
INFO
##します
articles
schema
##sible
OpenCV
specialist
Voice
Đường
true
Share
JUNE
08/2015
IInn
0163
Young
##LOG
SW
thuê
Webservice
ecommerce
SIM
##ĩ
rent
##àà
##product
##Edit
Cần
##:16)
Subjects
##rie
##School
##Information
assets
##1983
CAN
##chị
##Tran
##Good
Contribute
##Part
##12@
##Ủ
NS
##:77)
invoices
##tree
##Hà
Hel
stored
ngoc
##SR
mind
##course
##ather
situation
movie
##ept
##key
did
Lao
##nhat
##nhan
Leading
hy
##mind
2.5
Audit
##plan
Rec
Months
0122
giản
##Sec
Second
##サ
##住
Scientific
##等
##画
##cchhnnoollooggyy
##hấn
##Ử
Avaya
Enthusiastic
Hiệp
Hùng
Mellon
NGUYỆN
SOCIAL
Solaris
Studies
Yahoo
clarify
executive
gặp
riêng
tennis
tầng
vehicle
vitae
学歴
Black
Shell
linux
compiler
06/2019
capability
##地
hiển
12/2011
##長
10/2011
estate
Interview
Consol
OOAD
##depth
##buổi
Allow
North
Evaluation
Quân
Carry
expand
Đề
resolving
Postman
##Hub
bổ
Nhuan
protect
clearly
##264
đông
That
##PORT
Requirements
kit
Auditing
trained
Hold
lai
MBA
Ecommerce
Techniques
##ở
##solution
(2008
##android
##Learning
##Visual
##java
##Development
ready
GIS
SOA
Cung
##ẾT
##1985
Chung
##:31)
manuals
DN
##Le
searching
##iOS
##JSC
8.0
supplier
Qualification
Nha
##/15
##eess
##HE
##sys
electronics
##cuong
Vin
##IDE
phuong
##hiều
assess
##:102)
##ỉ
##etting
branch
##ỡ
##ロ
##ü
Purchase
Remote
Society
Telerik
VHDL
category
competitive
contribution
lãnh
memory
mắc
rèn
scrum
MỀM
attention
dạng
seminar
##保
##う
Show
##ティ
router
Liem
consist
tuning
AngularJs
cũ
DUC
##iềm
##プロジェクト名
##aaaannnn
##:127)
phường
Solve
loan
##storm
Clear
Also
Thuận
ISB
##eennii
đình
lời
everyone
freelancer
Thao
Transportation
chiếu
FSOFT
sprint
Khánh
Nhiên
finished
Tử
gathering
##trang
focused
soon
##ttiioonn
6/2012
Electric
tablet
Lac
Porting
Organizer
##:57)
foreigner
##RES
Layout
##business
##Media
##Management
##task
Dao
##::::
##Book
phá
situations
##take
Chỉ
##date
##chain
##cast
concepts
sport
##qua
##:789
DR
##def
##UIT
evaluat
don
Pay
##ja
##:98)
##trinh
##POS
hộ
ways
##Full
##140
applica
##^
##分
##力
##教
##技術
almost
##通訳
##∑
COURSE
Carnegie
Founder
HoChiMinh
ISTQB
Improving
QUẢN
Strategic
Unified
Verilog
Xamarin
analytics
innovative
kịch
ngừng
operator
return
gọi
simulation
Package
##新
motivation
forecast
spring
##期間
##記入
Face
##:1227)
fanpage
Artific
##職歴
menu
##ẫn
iPhone
functionalities
Room
huyện
07/2014
Audio
TTRR
Trị
Template
cards
region
American
bật
Json
rest
classes
##ental
Becom
6/2013
##phu
Portfolio
##BE
##phuc
ads
Đội
##ÁCH
##:82)
Central
##asia
##Hibernate
##Manage
##bility
##master
beginning
specializ
##LTD
##XML
##version
##website
##development
scenarios
Hanh
##Kỹ
##wide
watch
##URE
SQLServer
##14)(
fun
##run
##01@
0986
##65)
##0/10
##255
Integrate
##ưư
SYSTEM
Signal
##作成
##テ
##翻訳
##外
##ュ
##EMBER
##ocieties
Arduino
Association
Bitbucket
DevOps
Django
FPGA
HOÀNG
JLPT
Middleware
Nhiệt
PROGRAMMING
SERVICE
Technician
Waterfall
cluster
english
perfect
đầy
##ミ
##資格
Jasper
DUONG
lessons
prevent
sample
Lâm
example
##出
section
Since
NOW
quà
AVR
##勤務
Methodology
expectation
attract
Giảng
basis
Division
ĐÃ
DATA
Negotiation
##MAIL
Area
Import
banner
BrSE
##ịị
thái
lòng
detection
trainee
European
foundation
advertisement
Execut
08/2012
Flow
01/2017
Like
NHibernate
getting
##cut
House
vice
Lotte
Bộ
0989

Ericsson
guests
##online
Sony
PCB
Huu
hồi
UNI
##ppoo
##card
##WS
LED
UC
Vui
(2019
Cuong
##FP
##lick
math
workshops
##ICS
These
##106
##Solution
##Report
##Group
##tháng
##Hanoi
##Microsoft
##operation
##management
##09@
##ref
deploying
##MAN
maintained
##9/10
##hể
##Tester
##some
##dddd
##hiếu
##ưu
##tam
Cty
scenario
There
PART
achievement
Apple
##abi
##TRA
screens
##dong
##ht
##ARR
##thai
##NNNN
valid
##utstanding
Author
Nhan
##DIA
QQuu
ENGINEER
##取
##動
##基
##定
##Ù
##Distribution
##bilingual
ANDROID
Additional
RESEARCH
Retrofit
SCRUM
STUDENT
VueJS
calendar
diagnos
executing
favorite
receiving
respond
Dụng
Identify
biggest
nguyên
trigger
wireframe
##カ
Blood
Supervise
luận
occur
parents
09/2011
Focus
Sản
Router
##取得
Honest
##できる
comprehensive
Effective
0.5
choose
##ồi
Employment
act
Export
resume
Chain
hardworking
mentor
compare
advancement
fair
##yyyy
##HR
04/2014
04/2017
Third
nợ
màn
batch
Pleas
automated
SYSTEMS
income
Thủ
Metro
0906
##*?
##ÁÁ
discussion
0908
TFS
Coursera
programme
total
##:30)(
##oonngg
##rise
vai
##lf
9/200
##ltd
IIG
really
logistics
##develop
##za
fully
KHÁC
young
Searching
##ています
##control
##Office
##Center
##Sales
##now
##training
##WORK
##Phone
##RAN
##:787
##Nov
##END
gra
##Pay
##Trương
##Log
##huyen
##ctu
##HP
##Tool
Compa
##hl
photos
##êu
teacher
##otion
##800
##650
Đả
##uoc
workshop
reviewing
##hcm
topic
gather
##map
Contribut
##す
MAC
##commend
Config
##作
##全
##成
##一
##EEnnggiinneeeerr
Altium
Gifted
Hochiminh
Introduce
Memcache
ORACLE
Olympiad
Opportunities
RESUME
Sublime
VViieettnnaamm
dashboard
encourage
nhúng
picture
proficient
registration
sequence
translating
##►
##ウ
Philippine
Release
Restaurant
employer
quotation
Record
Trello
examination
##現
##operative
Watching
transform
Floor
Linq
updating
##volution
Steel
reason
Medical
12/2018
##作業
agile
Clean
versa
font
division
cooperation
GitHub
Liais
Onsite
Loc
Moreover
Thường
taught
dàng
checklist
##まで
##iieess
TTHH
Thế
Lot
06/2012
05/2012
##OORR
accuracy
JUnit
Generat
0126
02/2017
limited
03/2013
Achieved
assessment
scan
11/2013
trải
09/2010
phán
Yes
Vuong
##fix
##town
Khai
Organized
Realm
##88@
##oyal
##NNEE
Api
JMS
Australian
joint
##ỚI
Kha
Pte
##Xã
##hcmut
speaker
##TEL
Directory
##SVN
operational
##Framework
##Contact
##Basic
––
##front
##Post
##08@
##application
##coding
(2009
##current
##about
##soạn
##3/10
##1/10
Qt
##rote
Mathematic
##47)
##CSC
Dan
##222
##Ó
##本
Automatic
Ben
##Ề
draw
##1997
##Git
##ball
##you
##tung
##校
Refer
##得
##時
##え
##コ
##通
Chuyển
Government
INTERNATIONAL
Receiving
Representative
Screen
abroad
approval
bachelor
capabilities
capacity
competitor
fulfill
newspaper
particular
principle
safety
spoken
volume
đẩy
##バ
##連
##
DESIGN
blood
##品
##立
入学
##許
Animation
##約
flash
agency
Nói
##活動
aanndd
Interpersonal
Outsourcing
crawl
URL
distributed
coordinating
Sensor
##学部
THÂN
keyword
##113
Safe
assistance
Outstanding
suất
Super
giving
DANG
VINA
##仕事を
gì
##CareerLink
DBMS
parties
##article
niên
##ietnamworks
five
##2002
9/2015
phía
8/2013
##wear
tay
##eell
##thien
##:28)
Login
minutes
khám
sai
Bash
offering
bay
editing
Theme
##llet
Customize
statements
ACM
1/2015
topics
0963
##Phase
Tôn
##:24)
##:119
##Sql
##manage
##Google
##Database
##profile
VBA
##scale
##custom
##hiep
##Core
##Lab
##Thăng
##nstant
APR
Involve
##236
##aka
##:6)9
item
09/200
Rest
##defined
##gov
##ành
##XP
##dai
##AGE
AWARD
##acti
##ARM
config
##不動産
##工
agencies
##自己
##&#224
ACADEMIC
BUSINESS
Circuit
Equipment
Festival
Hitachi
Instrument
Negotiable
Supply
TUẤN
Vấp
against
associate
entrance
junior
kèm
legacy
license
organisation
voucher
##❖
##専門
Infomation
Trọng
##結合テスト
ajax
novel
##意
##手続き
CHUNG
Steve
TIẾT
JDBC
average
series
03/2019
##時間
Keil
Routing
##venture
EXTRA
Billing
##Xampp
Debug
visitors
Overview
smartphone
##eeeerrrr
Luật
RReess
shipment
Canada
khối
đủ
Nhất
##でき
##dependence
root
accountant
Hướng
VoIP
cán
Hữu
Trí
lông
SOLUTIONS
HÀNG
outside
##cular
##年間
Jmeter
Mining
Gather
Migrate
##LOC
Vĩnh
largest
webservice
vé
##SVM
Mở
11/2017
WAN
GSM
PHU
8/2015
7/2013
10/200
Spa
##:17)
5.5
##rách
##XÃ
##1994
performed
5/2014
##driven
4/5
far
executed
##Thi
##977
delivering
##learn
##eller
Như
##organized
##Ubuntu
##school
##Shop
##Japanese
##Game
##Feb
##basic
Provided
##Create
(01/
##thao
##:14)
##developer
##190
##One
##1100
##recommendation
Postgre
speak
Grad
Track
Orient
##Ê
##ravel
##type
##ỷ
##ould
Cyber
##部
firm
##テスト
##化
##区
##Elementary
##equivalent
######
ABOUT
Advertising
CCôônngg
Continuous
Huỳnh
Kingdom
LogiGear
Swimming
TECHNOLOGIES
ambitious
calculation
dưỡng
guidance
magazine
mùa
nghành
tắt
xuyên
ĐIỂM
##♦
Automotive
Elasticsearch
Italian
RDBMS
generation
intelligence
receipt
##信
Journal
NATIONAL
White
CENTER
Thinking
##他
06/2018
món
##有
03/2018
creation
Solr
recent
Campus
spend
copy
Ionic
fax
##\
Proactive
BOD
02/2019
little
Visit
ĐỒ
truyện
đích
##いた
##を作成
Thuế
##ール
Fire
wish
smoothly
Giáo
VNĐ
##uunngg
visa
##biz
Concept
12/2019
catch
CTO
CAO
100%
##ỐC
Gold
awarded
editor
Dân
Took
complaints
10/2017
7/2014
started
7/2012
qui
Arm
mainly
##bug
##Window
NEC
VMS
fan
##je
Yo
##IPS
PIT
Give
##2/2020
Tung
##リーダー
Opti
Thạc
##Script
##Vietnamese
##student
##functional
##Customer
##các
##Company
##write
##special
##Time
Techno
##năm
##:66)
##Kinh
0979
##life
##know
##ầm
question
Logistic
Beside
##tek
##ữu
##LY
##hứng
##237
involve
##ét
##húc
Assembl
measure
##自分
##distribute
##高
##任
##性
##及
##専
##正
##Ĩ
Citizen
IntelliJ
Procedure
QUALITIES
Semester
Taiwan
announce
balancing
competence
hiểm
industrial
popular
sponsor
translation
vượt
フリガナ
##★
Capstone
Success
Techcombank
Trưng
explore
summer
wireless
Excellence
Thêm
Xuất
combine
##家
##ニ
Hutech
verification
Broad
01/2019
NodeJs
SĐT
##triệu
logging
##金
Running
SINH
Valid
10/2018
##body
##Queue
Insight
Easy
expected
Cybersoft
Thuyết
nhánh
property
serving
11/2018
difficulties
CNC
Gitlab
##rợ
PTIT
resolution
##:21)(
branches
##XSL
East
JULY
02/2015
Sense
throughout
##ệệ
đất
enter
03/2012
gifted
coaching
UNIT
Phat
Block
mining
NoSQL
arrangement
tiên
0905
Brit
sao
fresher
validate
spa
##Nhập
##sition
##vinh
recruiting
6/2015
##ẦU
##expect
6/2016
6/2017
connected
##1000
Spec
##uel
extend
TDD
##eenntt
##ography
##eemm
Tree
##keeping
##graphic
radio
0968
Dat
##German
##module
##consultant
##Angular
##Consultant
##including
##knowledge
##Studio
##company
##office
##account
Ngô
##Open
##Ở
##watch
##trong
##vision
##ILL
##Apr
(84)
cart
##Ỹ
0973
##Công
##have
##unk
vendor
matter
statement
##Xâ
asset
accord
##/1998
even
Person
##0%)
plug
##ằ
##発
##的
##nnssiibbiilliitt
##°
##É
##âânn
##キ
##日本語能力試験
##知識
##iiêênn
##Ợ
ACADEMY
Badminton
CHÍNH
Field
Firmware
Indonesia
Intelligent
Pascal
Relevant
Resolve
Strategy
Translating
Tùng
WEBSITE
closing
committed
definition
describe
domestic
employment
healthcare
normal
scratch
##〒
##単体テスト
##読
##sphere
Obtain
mission
##企業
##免
##TOEFL
Brief
HIGH
reservation
Coffee
Estate
Verification
Through
Mạnh
caching
Cobol
quỹ
Medium
đoan
01/2018
Claim
Cycle
Hyper
appreciate
##giảm
##craft
##IỄN
##った
pphh
HMI
##uyền
##ック
firmware
##}
extract
Gala
Scanne
Interactive
Yêu
DDeess
Secondary
##日本人
DINH
Hạnh
carefulness
khắc
acceptance
Three
bưu
tỉ
Road
stress
later
##IỆU
reward
07/2012
04/2013
Thọ
Leave
##ICAL
##xml
WebService
NXP
jui
khen
##gggg
Thủy
collection
##duction
0902
Tiền
Hieu
Water
LONG
8/2016
continue
feel
Thiên
##898
educational
Received
Thuong
sung
Sever
Our
##:15)
##member
4/2015
##430
##117
Hạ
##ASH
##ám
##UYEN
Mark
##AAPP
##uoi
##sell
##Jul
##power
##Product
##writing
##Japan
##International
##Thực
##June
##Phần
##technical
##graduate
##issue
Less
##Engineer
##position
##ALL
##Biz
##Sử
##JP
0985
0982
##128
Evaluate
##Shi
##979
trend
prefer
advance
America
advertise
##間
construct
Simulat
Effect
prior
##ホ
##活
##方
##アプリ
##セ
##Ắ
##給料
Ensuring
##修
##ccrriippttiioonn
##oluntary
Acceptance
Aprotrain
Boostrap
COMMUNICATION
Chuẩn
Confluence
Edumall
Greenwich
JBoss
Kiếm
Military
Nissan
Principle
Scientist
Secretary
Traffic
TÍCH
Weekly
Written
Zealand
chấp
contributing
convenient
draft
energy
enough
facilitat
firewall
lecturer
lựa
similar
summary
Đống
##Middle
nghiêm
retriev
##ẳ
Laptop
Myanmar
Nginx
innovation
modify
Nokia
08/2018
quần
Risk
Shopping
Catia
everything
Capable
Kendo
attack
slide
MISA
Money
Postgresql
##プロ
CMMI
insert
7308
##smoke
##ivil
password
usage
Classification
04/2018
##管理システム
poor
Coordinating
Virtualization
quen
VỤ
Specialization
winform
Radio
##wire
transportation
##Series
##ếế
MacOS
mỉ
Analytical
##pub
SignalR
##capable
cường
sĩ
THUY
02/2014
hire
MMMM
Hộ
0938
Workshop
AIX
Đối
Auditor
0904
HẢI
09/2009
09/2017
xả
0914
sever
Recruiting
##ếp
##ARY
Attended
Thinh
Hoài
##7/2019
##:131)
hạng
installed
established
7/2016
cống
##227
PDF
##TTIIOONN
##ilot
##stone
5/2015
##EXT
seek
##FIS
##ượn
##Term
SEA
##:120)
##hub
STM
##OUR
##fish
decide
##Express
##friend
##Auto
##Stack
##Language
##client
##Global
##TOEIC
##Support
##Excel
##implement
Đô
logistic
Subject
SAN
##:30)
Recruit
##6888
##5.2
ttrr
ACHIEVEMENT
phả
relate
##ordinate
##975
##Ú
Accomplish
##勤
certif
##準
##自
##パ
##デ
##進
##経
NNGGHHIIỆỆ
##氏
##特技
##&#243
Distributed
ElasticSearch
FRESHER
LỰC
Manufacturing
NNgguuyyeenn
collaboration
complicated
enhancing
excellence
extensive
huống
hằng
negotiate
primary
subscriber
succeed
túc
usually
生年月日
##歳
##男
##
##TAKEN
##websitetemplate
CMND
DaNang
SSyysstteemm
consumer
laptop
merchant
チーム人数
##ビ
##ntergration
Architectural
HUTECH
lội
mistake
producing
shell
tồn
開発環境
Norway
Đạo
##応
##手
07/2011
##習
05/2019
pursu
queue
Display
changing
09/2018
Hobby
tuổi
Logging
8051
Promote
WinForm
##働き
alert
Italy
##ット
Teamsize
wait
chess
authorities
##:1223)
GIÁ
Collaborat
Intership
##uuoonngg
Cooperate
Smartphone
suite
landing
##イン
SSRS
khiếu
Reactjs
road
dây
##プロジェクトの
Angularjs
kiên
05/2013
tờ
below
Advisor
pick
Spark
hold
accurately
01/2014
GMO
four
HTM
KIM
approved
Documentation
ITIL
customiz
969
fill
overtime
tight
Monthly
##ので
Fund
80%
##sub
lao
##432
8/2012
##SWI
##vote
##preview
bus
##ÓM
additional
##và
##4/10
##ICT
##quan
##park
Quê
##138
##ARD
##Beginner
##Box
##Experience
##language
##High
##[
##Admin
##React
##April
##Tham
##active
##July
##lead
##create
Idea
##JSP
vô
##169
##ầ
##post
Mini
Arc
0974
##viec
gift
Employ
##sourcing
ACTIVIT
character
##実装
##kernel
Kafka
TThhaannhh
adjust
##JQUERY
##OAuth
##confidence
##participant
Background
Bilingual
CLUB
Completion
Especially
KHÓA
Knockout
LLeeaaddeerr
MAJOR
PHÁT
Plaza
Renesas
SENIOR
Spanish
VOLUNTEER
authentication
categories
creativity
difference
energetic
enviroment
estimating
investigate
messaging
nghị
optimizing
prospect
shift
vùng
ふりがな

##基本設計
Defect
Interpreter
TOOLS
Tuyển
VMWare
##詳細設計
completing
##持
Capture
Promotion
Protect
located
wrong
Sketch
##関
##league
##せ
Softech
moving
##要件
solid
##competent
Secure
Axon
8/2011
representative
gym
ASEAN
6/2011
storing
Common
Just
ĐÀ
##XXX
HHàà
07/2019
khuôn
rằ
SPI
attendance
##vien
recommendations
##を担当
insight
nhì
WebForm
Phó
importance
##ない
CCHH
hát
0015
Chess
replace
##ồng
TIẾN
webmaster
##Russian
##PPEERR
Collaborator
Expression
11/2012
##IONAL
Collection
Lane
Lien
stop
##ICE
##:821
Serve
0969
statistical
##225)
##:22)
##node
##2/10
..........
##その他
##Master
##Fax
##First
##Laravel
##Giám
##Front
##Object
##jQuery
##November
##Facebook
##Read
##Computer
##Direct
##Bach
##Lập
##Free
##giao
##open
nhiê
##host
##EAN
##Smart
##ZZ
##sume
##ACK
##tended
##385
##ROM
NHÀ
approve
Friend
sàn
##hưởng
##uyết
##ど
##在
##前
##メ
##ち
##配偶者
##」
##Libraries
##Utility
+(84)
Affairs
Children
Competent
Culture
Increase
Injection
Optimization
PROGRAM
Resort
Seoul
SourceSafe
TRIỂN
Vehicle
calculating
commitment
conflict
cắt
easier
famous
multinational
nhẹn
participation
physical
technician
tốc
##ション
##加
##&#225
##PUBLIC
Companies
Mockup
Purchasing
Regional
##受
##struts
Diễn
Organis
Robocon
Village
configuring
##「
##characteristic
Multiple
Quarter
campus
##工程
Autocad
nginx
xóa
##対
Select
Lộc
##つ
routing
segment
##ẰNG
08/2011
##お客様
break
debt
doctor
PBX
##高校
allocate
mapping
few
##システムテスト
Donation
signature
##IITTYY
Upload
##withDuc
09/2019
Scala
##っ
wrote
ENGINEERING
Interaction
mass
entry
Font
##eessee
##ラン
Hiring
grant
Topica
permit
##ICPC
STRENGTHS
THAI
Execution
leave
Startup
lẻ
##会社で
eye
GGii
NNgg
đương
ĐIỆN
PERSONALITY
Participation
0975
##sharp
sound
##arious
NAY
duty
##iều
Tracker
##Vega
08/2010
##hạy
Personality
LCD
##êê
Driver
đài
tân
DONG
##Enhancement
##BBBB
##SAPERP
##:56)
##6.0
(11/201
##HỮ
##Ầ
##ODE
##1/2020
##suggestion
##hỉnh
##11/2019
##include
##job
##Level
##Senior
##Training
##Leader
##micro
##User
##Dev
##HHaa
##HỦ
##react
##who
10.0
##phat
migrate
##home
NetBean
##event
##Wire
............
##Serv
##disc
Achieve
motivate
modul
SOLUTION
CERTIFICATION
smooth
transport
QUAN
##plication
Confident
##期
##electric
##東
##能
##特
##解
##来
##開
業務内容
##ズ
##データベース
##相
nnăă
##DDiissttrriicctt
##Dependency
##TThhàànnhh
##employed
##ntellectual
##ubsidiary
##ưườờnngg
Agreement
Country
Extensive
Fabric
HÒA
INTERNSHIP
Individual
Intellij
Lực
MANAGER
MOBILE
MUỐN
MẠNH
NGÀNH
Repository
Switzerland
Trouble
Unilever
Workbench
analysing
aptitude
chúng
correspondence
diverse
essential
facilities
flexibility
generating
introducing
investigating
involving
lúc
##サポート
##ホテル
##認
HaNoi
Kanban
awareness
diploma
lệnh
permission
relative
Backbone
charity
iPad
predict
reliable
saving
Future
apache
##報告
Propose
medium
móc
why
##ように
metrics
Sáng
Zalo
##terpreting
Edition
Lạc
OPERATI
Eager
mvc
Cooking
trust
ducnt
=>
merit
Streaming
transition
planned
Submit
PHUONG
##cntt
nhuận
##aaaallll
##YYYY
past
INTER
VŨ
Chánh
đỡ
Loan
cache
Proxy
Overall
Simulation
Upper
Paris
phúc
Kiem
##half
represent
click
Jsc
(08)
donation
Singleton
Zone
belong
ttoo
thiếu
nỗ
##aptech
measurement
fall
0933
SLA
##Outsource
0987
##INTE
##atory
##driver
##towards
##admin
0978
0977
##ological
##SAPSD
##connect
##Implement
##Job
##Eclipse
##Present
##which
##technology
##center
##migration
##Skills
##2.0
##vercome
Technique
fresh
regard
Giá
##nguy
##料
##:139)
##Publish
broad
##京
##CURRICULAR
##ワ
##番
##証
##際
##関係
##acceler
##レベル
##DDUUCCAATTIIOONN
##IIEENNCCEE
##beginner
##ììnnhh
Availability
Balsamiq
CORPORATION
Champion
Download
DỊCH
FREELANCER
Fujitsu
Hackathon
Innovation
MATLAB
Messaging
Neural
Panasonic
Passionate
Republic
SSKKIILLLLSS
Safari
chuyến
coordinator
currency
exactly
exercise
experiment
identification
joomla
manufacture
mechanism
meticulous
mockup
mongodb
nhắn
optimal
recovery
scalable
significant
supervision
sắm
thorough
universities
ĐOÀN
##女
##評価
##ompatibility
Thảo
XUÂN
barcode
refactor
Datalogic
Intranet
inquiries
ngiệ
spread
##わ
##outlook
Dagger
Hợp
cutting
càng
06/2011
Verifi
cooking
THAO
##udience
Price
##代
##メール
deliverables
##以上
Apex
Robotics
JVM
honor
huge
Xml
GNU
LINH
rapid
Story
SPSS
something
##たいです
mindset
Merit
##HẤT
##arveynash
Cocos
ORM
ALV
cell
ECONOMICS
##ỘNG
Asset
(84-
Observe
##ỹỹ
BINH
everyday
Jsp
##自分の
Ship
dòng
##tthhee
chắc
Digi
02/2013
##diem
##cemb
##Grid
##boot
customization
0932
supervise
##________
01656
##2/2019
Shin
##866-
##LLUU
##Ware
##Các
##founder
##stream
##Multi
##program
##Control
##operate
##Certificate
##class
##certificate
##Singapore
##Bootstrap
##Power
##Position
##information
##Thành
##phần
##SOA
rule
##日日
##efore
##学生
##well
lướ
##udio
QUALIFICATION
RMI
##Ồ
##SQLServer
thác
##iiiinnnn
##orient
##設
trouble
##ÔÔNNGG
##:1219)
intelligent
##インターンシップ
##心
##&#244
##oorrmmaattiioonn
##ÌÌNNHH
Bluetooth
Calendar
EXPERTISE
Enjoy
Fedora
Foxpro
Framwork
Giúp
HOBBY
KNOWLEDGE
London
Mechanical
NGHĨA
Occupation
Official
Offshore
PPRROOJJEECCTT
Possess
Practicing
Primefaces
Professor
Register
Satellite
Scheduling
Signature
Sociable
Strengths
Sutrix
THỐNG
Youtube
angular
automotive
beautiful
comprehension
coordination
failure
maximiz
maximum
milestone
nặng
pphhốố
procurement
qualified
simulator
tthhôônngg
volleyball
##スタッフ
##証明書
##
Apartment
TRUONG
XÂY
dedication
elements
enrich
explain
nghê
shipping
##チームワーク
##無
##終
Dũng
Jetty
Therefore
chào
nữa
season
trào
việt
vừa
氏名
allocation
##問
##好
##調査
Airlines
EEXX
RxJava
##へ
Ocean
prompt
##税
07/2018
Lớp
QUOC
THANG
##サブ
Selling
floor
Garment
01/2011
##じ
Sometimes
##:143)
APPLI
##ば
EXTRACURRICULAR
Linkedin
UDP
orientation
EXPECT
Sharing
River
color
Tower
TypeScript
PHÚ
Printer
##folder
anywhere
##became
LLêê
##urthermore
Moderate
scanner
initial
weather
##ửử
Gym
Automate
proxy
Detection
encryption
heart
submitting
Mind
huyết
11/2011
NGÔ
##いました
visualization
##spot
VINH
fullstack
peer
##Edge
Chiểu
##ỤỤ
##KỸ
........
##invent
##standing
##____________
##ưới
9.0
##TEK
##recognized
##blue
##ought
##~~
Step
##Robo
Compose
##keeper
conversation
__________
##mini
##のため
##Chương
##Controller
##Graduated
##JAVA
##●
##India
##medical
##style
##visual
##Thiết
##Contribution
##4.1
##007
001
MMaannaaggee
agree
automate
##regional
##sistant
limit
Russia
phâ
DETAIL
INTEREST
##guồn
##ướng
Require
##‐
Silver
##ィ
##製
##説明
##プログラム
##UUNNII
##位
##資
##先
##ccaattiioonn
##望
##Cordova
##ṇ
##→
##√
ADDRESS
Analysing
CamScanner
Character
Chemistry
Council
Family
Identification
JJaavvaa
Mockito
NGỌC
NHẬT
Participant
Primary
RRoollee
SalesForce
Thymeleaf
WebSphere
acquisition
chống
chốt
declaration
delegate
deposit
festival
guarantee
hundred
integrity
niệm
optimistic
simulate
specified
studies
synchronization
temperature
uống
##ソフト
##受け入れテスト
##満
##監視オペレート
##
##:1249)
##MMEENNTT
Fanpage
Paypal
Personnel
administer
Fashion
Fuji
archive
assembl
ホーチミン市
Answer
MÔN
XUAN
gói
##アルバイト
##=10000
certain
luồng
##別
07/2020
Prime
Agriculture
refer
Doctor
GOAL
##必
LAMP
TUAN
##支
TTHHÔÔNNGG
facing
broadcast
laboratory
##設計
apartment
anything
Planned
LTE
APRIL
alarm
oversee
##omfortable
##ホア
##VVEERR
##chitect
Jae
Goals
provision
##either
Khương
MARCH
##日生
Careful
RIA
kỷ
chuyền
##green
loss
Hiến
alone
ttiinn
##Reason
earn
Sqlite
Thiện
Phước
Space
chuyện
hoá
##LAST
Paper
##Technologiesused
##hép
##ỞỞ
semi
70%
##motiv
##themes
##IZE
##Info
##commissioning
##営業
##info
##umulati
##4/2018
##～201
adhere
commission
##Engine
##beginning
##channel
##株式会社
##controller
##successful
##global
##Kết
##Health
##Unix
##Model
##VIET
##experience
##Chức
##Swift
##Excellent
##support
##Ajax
##Python
##August
##analysis
##Tax
##cloud
##field
##/10.0
##Đồ
##6.1
though
********
profession
##Migrat
##emplate
communica
giữ
##IẾN
##ameloft
##omplex
##Ễ
##験
##命
##備
##考え
##不具合
##契約書
##県
Administrative
##ベ
##予
##規
##身
##Katigbak
##alculator
##middle
##ymbolic
##
22001155
AUGUST
Beginning
Bugzilla
Critical
Dashboard
Enthusiasm
Evolable
FINANC
FRANCE
Hybri
Instagram
JMeter
Messenger
MyBatis
NNGGUUYY
Newspaper
NẴNG
Proceeding
Prototype
SPECIAL
Semiconductor
achieving
basketball
brochure
catalog
collaborate
defining
demonstration
identity
navigation
newsletter
nngghhệệ
participating
patience
supermarket
technological
thẩm
valuable
welcome
white
ĐHQGHN
履歴書
現住所
##テクノロジ
##Toulouse
001166
Budget
Domino
Identity
Refactor
brief
declare
nnhhâânn
opinion
parallel
reliability
tournament
đẹp
##プログラマー
##RealEstate
Ethernet
Khiem
Vietinbank
agricultur
tòa
women
ĐỨC
Guitar
Reservation
##種
Examination
wallet
Golang
unique
##HHCCMM
##MobiFone
accomp
##売
CẤP
funny
##観
panel
quantity
05/2011
05/2018
03/2011
##点
##各
PPrroo
LDAP
VVIIỆỆ
Youngwan
embed
##chrome
Small
##ÊÊ
3740
pdf
##々な
teammate
Television
ReactJs
Each
##{
##sibility
VIETTEL
##stead
priorities
##ềề
TTIINN
counter
cooperate
Hope
entity
##Print
EDU
CMU
conversion
Passport
IoT
quite
Khí
THƯƠNG
##Sharp
Excut
Blend
##grid
##Cube
##walk
##Farm
##ĐẲ
carrie
##226)
##quản
##contractor
##mulation
Investigat
##đỗ
##oonntt
##Point
##personal
##Order
##Month
##IELTS
##Life
##Platform
##Search
##document
##video
##
##○
##Enterprise
##JQuery
##number
##Knowledge
##Quang
##September
##Department
##quality
##Awards
driv
##場
advise
##scope
integrat
##Univers
##aught
Construct
##share
##hững
##がある
##ツ
##という
##ダ
##思
##販売
##ゲ
##平
##iiiicccc
##speech
009900
##ハ
##22001166
##IIVVEE
##SAIGON
##connectivity
##frequency
##ltimate
##ẤẤNN
##Ừ
=====
ActionScript
Ambassador
COLLEGE
Competencies
Consumer
Cucumber
DESCRIPTION
Georgia
ICDREC
IINNFFOO
Innovative
LIMITED
Lambda
Logigear
ONLINE
Operator
PERSIONAL
Paradigm
Patient
Phùng
Policy
Pyramid
RECORD
Raspberry
Resident
Résumé
Seminar
Sweden
TTIIÊÊUU
Tourism
Transaction
Vaadin
Vagrant
WWeebb
association
clothes
collaborative
compatible
consultancy
criteria
exhibition
guitar
institution
loyalty
neural
phượt
pricing
repository
scalability
society
superior
supplies
themselves
ĐĐẠẠII
性別
##体
##習得スキル
##Plugin
##Survey
##Toshiba
Behavior
Invoice
Modify
Sacombank
TESTING
Thụy
WebLogic
consistently
eclipse
middleware
pipeline
quote
reputation
##分野
##面
##„
ActiveMQ
Circle
Cologne
Jboss
Razor
STAFF
borrow
happen
please
questionnaire
remove
##―
MCITP
Trigger
upgrading
##appiness
Filter
modification
##仕様
Debugging
Gulp
SNMP
piano
##様
Acquire
Shipping
tộc
##Stream
happy
Capability
Compiler
Solidworks
Vector
terminal
Cinema
SMART
Welcome
infomation
Maritime
avoid
japan
##案
CCNP
TTrrầầnn
##退職
Desk
Why
Undergraduate
hiring
Honda
APPLY
Atlas
##-11-198
laravel
##ảảnn
CMMi
Rule
microservice
NOI
##ittle
Lifecycle
align
Typescript
3/2011
3/2019
Tòa
GAME
Alert
Creation
ethic
invite
engag
##/01/198
Speed
striv
##MMaannaaggeerr
##学院
##:141)
Surf
Arrang
Evaluat
phầ
##Nguy
Inspect
##Form
##expert
##Central
##Layout
##week
##window
##Program
##Limited
##Fresher
##Source
##New
##MongoDB
##College
##Cloud
##Photoshop
##Major
##Tiếng
##Chat
##From
##structure
##where
##Ớ
Analytic
guest
recognize
hiê
Interact
encrypt
Detect
Struct
##Ỉ
##nngguuyyeenn
##について
##ォ
##ポ
##号
##確
志望の動機
##ケ
##外国語
##RRMMAATTIIOONN
##SUMÉ
##academy
##boostrap
##ẬẬPP
+84-4-3
ABILITIES
ASSISTANT
AUTOSAR
Advertise
BACHELOR
CONFIDENTIAL
CONSULTANT
Commission
Counsel
DDaattaa
Decription
Deverloper
Entrance
Estimation
FoxPro
Framgia
GENERAL
INSTITUTE
JJaappaann
Liệu
NNĂĂNNGG
Nghĩa
Passerelles
Physical
SALARY
Siemens
Simple
Suggest
Sydney
THỜI
Toyota
VVăănn
Vinamilk
collaborator
consolidate
drupal
increasing
instrument
introduction
journal
mechanical
motorbike
practicing
satellite
supervising
swift
television
transmission
##●●○○
Accumulat
Launch
Nhạc
Pepsi
Summit
TÍNH
Urban
dispatch
encounter
minimize
đuổi
Crawler
Delphi
Hằng
Ignite
TTeecchh
centos
hẹn
prime
SmartOSC
nodejs
village
##aarrdd
Administer
Pocket
hãng
##を勉強し
Adwords
probation
##検
06/2020
04/2020
tàu
Fusion
##があります
Juniper
Magic
##OBIEE
centre
Paul
##iiiinnnngggg
Speaker
Earth
Usability
OSGi
Photography
Command
intranet
Instructor
quân
Publisher
Descripton
##-12-198
##Redhat
##chụp
Two
MCSE
Mentor
Style
FTU
##DELF
##:153)
##Counter
HẠN
##uantitative
1/2019
Vital
excute
Break
Grab
##accomplishments
##ậậ
##SYS
##licit
##Fixbug
##9/2019
initiat
##9/2020
##TThhuu
##ACCA
YOU
##/09/1995
##wordpress
##Material
##World
##demand
##Functional
##WPF
##hardware
##Research
##through
##Hardware
##January
##Nghe
##Tháng
##
##Nhân
##Ã
minute
coach
Experienc
lượ
Distric
Own
Tín
##:7873)
Applica
Responsibili
##iversity
##ầầnn
##以
##ボ
##ソフトウェア
##entrepreneur
qquu
##に関する
##ヶ月間
Encourag
Flexibility
Southeast
##&#236
##:(+84
##Deposit
##Discovery
##Essential
##Simulink
##bbaassee
##hybrid
##lthough
##magento
##uussiinneessss
##ymposium
009933
ATTENDED
Acquaint
Approach
Asterisk
Attention
Bussiness
CATIA
Compliance
Cultural
DESIRED
Dedicated
Dormitory
Economy
Efficient
FFPPTT
Facilitate
FirstDoc
Forecast
Fukuoka
Fulfill
HHuuyy
HUỲNH
Include
KKIINNHH
LLÀÀMM
Mission
NetCOBOL
Numeriques
Overseas
PHẨM
PRACTIC
Pivot
Positive
Quartus
Religion
Response
Revenue
Symantec
Thrift
Victoria
WWOORRKK
arranging
atmosphere
charging
circle
communities
constantly
counsel
destination
drink
entertainment
exploring
figure
fundamental
identified
interpreter
manipulate
natural
organise
packaging
possess
redmine
robust
satisfy
secret
shareholder
simultaneously
testerhanoi
trathanhcao
utility
utilizing
warning
xưởng
●●●
##メンバー
##個
##絡
Grails
NNooii
PABX
Tỉnh
cabling
console
receivable
##ネ
##placing
##ノ
Fitness
Sigma
motivating
ráp
##スポーツ
AutoCad
RxAndroid
remaining
##細
Packet
certified
lọc
Omni
wedding
Decision
COMPETENCES
divide
##ofScience
PhoneGap
##utumn
04/2011
TÁC
typical
Pentest
Cocoa
##aspx
##oundary
Dyna
##saigon
Storm
##-08-198
Troy
clinic
##dream
##illionaire
##iivvee
##ncentive
##aattee
Universit
WIF
Paint
##NEU
Engag
##reedom
##dependent
##reparation
##Motivation
##nterior
migrat
##rofitability
##Inspection
##..............•.
##Baby
##oursera
Supplie
##営
##Compos
##detail
##confident
##brand
##Participat
##intermediate
##Netbean
##studied
##Check
##Member
##Sharepoint
##receive
##operating
##NodeJS
##Kiểm
##Process
##Korea
##integration
##Social
##Analyze
##people
##Agile
##pressure
##làm
##Khá
##Hoàn
Conversation
##iioonn
Motivat
Jenkin
Integr
OBJECT
本人
##:159)
##センター
##ビジネス
##制御
##産
##続
JAPAN
##TTEECCHH
##cchhiieevvee
##samsung
Entertainment
Erlang
NNộộii
##BBJJEECCTT
##ELECOMMUNICATION
##MASTER
##bsolute
##ewelry
##interpretation
##merchandise
##rtoiseSVN
##utonomous
##vSphere
Agribank
California
Charging
Cogini
Competence
Creativity
DIPLOMA
Groovy
HIGHLIGHT
Honours
INFOMATION
Liberty
Liệt
Matrix
Memory
Nottingham
Optimizing
PHÁP
PROGRAMMER
Parallel
Procurement
Railway
Receptionist
Rikkeisoft
SUMMER
Sequent
SoapUI
Specialties
Speech
TRAVEL
TTHHÍÍCCHH
Thầy
VCCorp
VVIIÊÊNN
WRITING
attached
belief
bidding
citizen
committee
##子
##御
##退
##言
##調
##商
##明
##結
##Ẩ
##従
##知
##—
##Ụ
##Ì
##ブ
##Ò
##携
##引
##Ữ
##
##
##
##
##仕
##件
##記
##当
##ペ
##真
##配
##
##©
##ẫ
##Ũ
##訳
##門
##単
##視
##
##々
##英
##技
##査
##帯
##洋
##Ờ
##Ỳ
##ガ
##
##□
##■
##
##程
##課
##制
##具
##管
##監
##ョ
##報
##翻
##不
##情
##§
##株
##説
##野
##給
##価
##識
##Ẳ
##式
##装
##係
##卒
##Ẵ
##告
##院
##
##
##
##
##処
##̈
##旅
##
##
##
##
##険
##責
##究
##最
##∙
##向
##偶
##
##契
##攻
##ピ
##律
##使
##
##研
##志
##ヶ
##割
##
##概
##履
##詳
##術
##ふ
##趣
##【
##試
##希
##ソ
##顧
##び
##環
##境
##≪
##ャ
##
##
##
##勉
##容
##格
##
##強
##
##
##
##
##
##
##
##
##そ
##
##
##
##
##
##ェ
##ỳ
##
##ẵ
##Ự
##Ậ
##Ả
##▪
##Ư
##ặ
##ù
##ẩ
##ú
##Ằ
##ắ
##ấ
##考
##ự
##己
##販
##担
##評
##ố
##企

